unsigned char mnist_onnx[] = {
  0x08, 0x05, 0x12, 0x0a, 0x6b, 0x65, 0x72, 0x61, 0x73, 0x32, 0x6f, 0x6e,
  0x6e, 0x78, 0x1a, 0x05, 0x31, 0x2e, 0x35, 0x2e, 0x31, 0x22, 0x04, 0x6f,
  0x6e, 0x6e, 0x78, 0x28, 0x00, 0x32, 0x00, 0x3a, 0x84, 0x10, 0x0a, 0x40,
  0x0a, 0x13, 0x64, 0x65, 0x6e, 0x73, 0x65, 0x5f, 0x31, 0x34, 0x2f, 0x53,
  0x6f, 0x66, 0x74, 0x6d, 0x61, 0x78, 0x3a, 0x30, 0x31, 0x12, 0x12, 0x64,
  0x65, 0x6e, 0x73, 0x65, 0x5f, 0x31, 0x34, 0x2f, 0x53, 0x6f, 0x66, 0x74,
  0x6d, 0x61, 0x78, 0x3a, 0x30, 0x1a, 0x09, 0x49, 0x64, 0x65, 0x6e, 0x74,
  0x69, 0x74, 0x79, 0x31, 0x22, 0x08, 0x49, 0x64, 0x65, 0x6e, 0x74, 0x69,
  0x74, 0x79, 0x3a, 0x00, 0x0a, 0x42, 0x0a, 0x13, 0x62, 0x69, 0x61, 0x73,
  0x65, 0x64, 0x5f, 0x74, 0x65, 0x6e, 0x73, 0x6f, 0x72, 0x5f, 0x6e, 0x61,
  0x6d, 0x65, 0x31, 0x0a, 0x01, 0x57, 0x12, 0x12, 0x74, 0x72, 0x61, 0x6e,
  0x73, 0x66, 0x6f, 0x72, 0x6d, 0x65, 0x64, 0x5f, 0x74, 0x65, 0x6e, 0x73,
  0x6f, 0x72, 0x1a, 0x08, 0x64, 0x65, 0x6e, 0x73, 0x65, 0x5f, 0x31, 0x34,
  0x22, 0x06, 0x4d, 0x61, 0x74, 0x4d, 0x75, 0x6c, 0x32, 0x00, 0x3a, 0x00,
  0x0a, 0x37, 0x0a, 0x12, 0x74, 0x72, 0x61, 0x6e, 0x73, 0x66, 0x6f, 0x72,
  0x6d, 0x65, 0x64, 0x5f, 0x74, 0x65, 0x6e, 0x73, 0x6f, 0x72, 0x0a, 0x01,
  0x42, 0x12, 0x12, 0x62, 0x69, 0x61, 0x73, 0x65, 0x64, 0x5f, 0x74, 0x65,
  0x6e, 0x73, 0x6f, 0x72, 0x5f, 0x6e, 0x61, 0x6d, 0x65, 0x1a, 0x03, 0x41,
  0x64, 0x64, 0x22, 0x03, 0x41, 0x64, 0x64, 0x3a, 0x00, 0x0a, 0x53, 0x0a,
  0x12, 0x62, 0x69, 0x61, 0x73, 0x65, 0x64, 0x5f, 0x74, 0x65, 0x6e, 0x73,
  0x6f, 0x72, 0x5f, 0x6e, 0x61, 0x6d, 0x65, 0x12, 0x13, 0x64, 0x65, 0x6e,
  0x73, 0x65, 0x5f, 0x31, 0x34, 0x2f, 0x53, 0x6f, 0x66, 0x74, 0x6d, 0x61,
  0x78, 0x3a, 0x30, 0x31, 0x1a, 0x07, 0x53, 0x6f, 0x66, 0x74, 0x6d, 0x61,
  0x78, 0x22, 0x07, 0x53, 0x6f, 0x66, 0x74, 0x6d, 0x61, 0x78, 0x2a, 0x14,
  0x0a, 0x04, 0x61, 0x78, 0x69, 0x73, 0x18, 0xff, 0xff, 0xff, 0xff, 0xff,
  0xff, 0xff, 0xff, 0xff, 0x01, 0xa0, 0x01, 0x02, 0x3a, 0x00, 0x0a, 0x42,
  0x0a, 0x13, 0x66, 0x6c, 0x61, 0x74, 0x74, 0x65, 0x6e, 0x5f, 0x37, 0x2f,
  0x52, 0x65, 0x73, 0x68, 0x61, 0x70, 0x65, 0x3a, 0x30, 0x0a, 0x02, 0x57,
  0x31, 0x12, 0x13, 0x74, 0x72, 0x61, 0x6e, 0x73, 0x66, 0x6f, 0x72, 0x6d,
  0x65, 0x64, 0x5f, 0x74, 0x65, 0x6e, 0x73, 0x6f, 0x72, 0x31, 0x1a, 0x08,
  0x64, 0x65, 0x6e, 0x73, 0x65, 0x5f, 0x31, 0x33, 0x22, 0x06, 0x4d, 0x61,
  0x74, 0x4d, 0x75, 0x6c, 0x3a, 0x00, 0x0a, 0x3b, 0x0a, 0x13, 0x74, 0x72,
  0x61, 0x6e, 0x73, 0x66, 0x6f, 0x72, 0x6d, 0x65, 0x64, 0x5f, 0x74, 0x65,
  0x6e, 0x73, 0x6f, 0x72, 0x31, 0x0a, 0x02, 0x42, 0x31, 0x12, 0x13, 0x62,
  0x69, 0x61, 0x73, 0x65, 0x64, 0x5f, 0x74, 0x65, 0x6e, 0x73, 0x6f, 0x72,
  0x5f, 0x6e, 0x61, 0x6d, 0x65, 0x31, 0x1a, 0x04, 0x41, 0x64, 0x64, 0x31,
  0x22, 0x03, 0x41, 0x64, 0x64, 0x3a, 0x00, 0x0a, 0x57, 0x0a, 0x1a, 0x6d,
  0x61, 0x78, 0x5f, 0x70, 0x6f, 0x6f, 0x6c, 0x69, 0x6e, 0x67, 0x32, 0x64,
  0x5f, 0x31, 0x33, 0x2f, 0x4d, 0x61, 0x78, 0x50, 0x6f, 0x6f, 0x6c, 0x3a,
  0x30, 0x0a, 0x0c, 0x73, 0x68, 0x61, 0x70, 0x65, 0x5f, 0x74, 0x65, 0x6e,
  0x73, 0x6f, 0x72, 0x12, 0x13, 0x66, 0x6c, 0x61, 0x74, 0x74, 0x65, 0x6e,
  0x5f, 0x37, 0x2f, 0x52, 0x65, 0x73, 0x68, 0x61, 0x70, 0x65, 0x3a, 0x30,
  0x1a, 0x09, 0x66, 0x6c, 0x61, 0x74, 0x74, 0x65, 0x6e, 0x5f, 0x37, 0x22,
  0x07, 0x52, 0x65, 0x73, 0x68, 0x61, 0x70, 0x65, 0x32, 0x00, 0x3a, 0x00,
  0x0a, 0x97, 0x01, 0x0a, 0x10, 0x63, 0x6f, 0x6e, 0x76, 0x32, 0x64, 0x5f,
  0x31, 0x33, 0x2f, 0x52, 0x65, 0x6c, 0x75, 0x3a, 0x30, 0x12, 0x0e, 0x70,
  0x6f, 0x6f, 0x6c, 0x69, 0x6e, 0x67, 0x5f, 0x6f, 0x75, 0x74, 0x70, 0x75,
  0x74, 0x1a, 0x10, 0x6d, 0x61, 0x78, 0x5f, 0x70, 0x6f, 0x6f, 0x6c, 0x69,
  0x6e, 0x67, 0x32, 0x64, 0x5f, 0x31, 0x33, 0x22, 0x07, 0x4d, 0x61, 0x78,
  0x50, 0x6f, 0x6f, 0x6c, 0x2a, 0x19, 0x0a, 0x08, 0x61, 0x75, 0x74, 0x6f,
  0x5f, 0x70, 0x61, 0x64, 0x22, 0x0a, 0x53, 0x41, 0x4d, 0x45, 0x5f, 0x55,
  0x50, 0x50, 0x45, 0x52, 0xa0, 0x01, 0x03, 0x2a, 0x10, 0x0a, 0x09, 0x63,
  0x65, 0x69, 0x6c, 0x5f, 0x6d, 0x6f, 0x64, 0x65, 0x18, 0x00, 0xa0, 0x01,
  0x02, 0x2a, 0x15, 0x0a, 0x0c, 0x6b, 0x65, 0x72, 0x6e, 0x65, 0x6c, 0x5f,
  0x73, 0x68, 0x61, 0x70, 0x65, 0x40, 0x02, 0x40, 0x02, 0xa0, 0x01, 0x07,
  0x2a, 0x10, 0x0a, 0x07, 0x73, 0x74, 0x72, 0x69, 0x64, 0x65, 0x73, 0x40,
  0x02, 0x40, 0x02, 0xa0, 0x01, 0x07, 0x32, 0x00, 0x3a, 0x00, 0x0a, 0x58,
  0x0a, 0x0e, 0x70, 0x6f, 0x6f, 0x6c, 0x69, 0x6e, 0x67, 0x5f, 0x6f, 0x75,
  0x74, 0x70, 0x75, 0x74, 0x12, 0x1a, 0x6d, 0x61, 0x78, 0x5f, 0x70, 0x6f,
  0x6f, 0x6c, 0x69, 0x6e, 0x67, 0x32, 0x64, 0x5f, 0x31, 0x33, 0x2f, 0x4d,
  0x61, 0x78, 0x50, 0x6f, 0x6f, 0x6c, 0x3a, 0x30, 0x1a, 0x0a, 0x54, 0x72,
  0x61, 0x6e, 0x73, 0x70, 0x6f, 0x73, 0x65, 0x31, 0x22, 0x09, 0x54, 0x72,
  0x61, 0x6e, 0x73, 0x70, 0x6f, 0x73, 0x65, 0x2a, 0x11, 0x0a, 0x04, 0x70,
  0x65, 0x72, 0x6d, 0x40, 0x00, 0x40, 0x02, 0x40, 0x03, 0x40, 0x01, 0xa0,
  0x01, 0x07, 0x3a, 0x00, 0x0a, 0xb7, 0x01, 0x0a, 0x0f, 0x70, 0x6f, 0x6f,
  0x6c, 0x69, 0x6e, 0x67, 0x5f, 0x6f, 0x75, 0x74, 0x70, 0x75, 0x74, 0x31,
  0x0a, 0x02, 0x57, 0x32, 0x0a, 0x02, 0x42, 0x32, 0x12, 0x12, 0x63, 0x6f,
  0x6e, 0x76, 0x6f, 0x6c, 0x75, 0x74, 0x69, 0x6f, 0x6e, 0x5f, 0x6f, 0x75,
  0x74, 0x70, 0x75, 0x74, 0x1a, 0x09, 0x63, 0x6f, 0x6e, 0x76, 0x32, 0x64,
  0x5f, 0x31, 0x33, 0x22, 0x04, 0x43, 0x6f, 0x6e, 0x76, 0x2a, 0x15, 0x0a,
  0x08, 0x61, 0x75, 0x74, 0x6f, 0x5f, 0x70, 0x61, 0x64, 0x22, 0x06, 0x4e,
  0x4f, 0x54, 0x53, 0x45, 0x54, 0xa0, 0x01, 0x03, 0x2a, 0x12, 0x0a, 0x09,
  0x64, 0x69, 0x6c, 0x61, 0x74, 0x69, 0x6f, 0x6e, 0x73, 0x40, 0x01, 0x40,
  0x01, 0xa0, 0x01, 0x07, 0x2a, 0x0c, 0x0a, 0x05, 0x67, 0x72, 0x6f, 0x75,
  0x70, 0x18, 0x01, 0xa0, 0x01, 0x02, 0x2a, 0x15, 0x0a, 0x0c, 0x6b, 0x65,
  0x72, 0x6e, 0x65, 0x6c, 0x5f, 0x73, 0x68, 0x61, 0x70, 0x65, 0x40, 0x03,
  0x40, 0x03, 0xa0, 0x01, 0x07, 0x2a, 0x11, 0x0a, 0x04, 0x70, 0x61, 0x64,
  0x73, 0x40, 0x01, 0x40, 0x01, 0x40, 0x01, 0x40, 0x01, 0xa0, 0x01, 0x07,
  0x2a, 0x10, 0x0a, 0x07, 0x73, 0x74, 0x72, 0x69, 0x64, 0x65, 0x73, 0x40,
  0x01, 0x40, 0x01, 0xa0, 0x01, 0x07, 0x32, 0x00, 0x3a, 0x00, 0x0a, 0x36,
  0x0a, 0x12, 0x63, 0x6f, 0x6e, 0x76, 0x6f, 0x6c, 0x75, 0x74, 0x69, 0x6f,
  0x6e, 0x5f, 0x6f, 0x75, 0x74, 0x70, 0x75, 0x74, 0x12, 0x10, 0x63, 0x6f,
  0x6e, 0x76, 0x32, 0x64, 0x5f, 0x31, 0x33, 0x2f, 0x52, 0x65, 0x6c, 0x75,
  0x3a, 0x30, 0x1a, 0x04, 0x52, 0x65, 0x6c, 0x75, 0x22, 0x04, 0x52, 0x65,
  0x6c, 0x75, 0x32, 0x00, 0x3a, 0x00, 0x0a, 0x98, 0x01, 0x0a, 0x10, 0x63,
  0x6f, 0x6e, 0x76, 0x32, 0x64, 0x5f, 0x31, 0x32, 0x2f, 0x52, 0x65, 0x6c,
  0x75, 0x3a, 0x30, 0x12, 0x0f, 0x70, 0x6f, 0x6f, 0x6c, 0x69, 0x6e, 0x67,
  0x5f, 0x6f, 0x75, 0x74, 0x70, 0x75, 0x74, 0x31, 0x1a, 0x10, 0x6d, 0x61,
  0x78, 0x5f, 0x70, 0x6f, 0x6f, 0x6c, 0x69, 0x6e, 0x67, 0x32, 0x64, 0x5f,
  0x31, 0x32, 0x22, 0x07, 0x4d, 0x61, 0x78, 0x50, 0x6f, 0x6f, 0x6c, 0x2a,
  0x19, 0x0a, 0x08, 0x61, 0x75, 0x74, 0x6f, 0x5f, 0x70, 0x61, 0x64, 0x22,
  0x0a, 0x53, 0x41, 0x4d, 0x45, 0x5f, 0x55, 0x50, 0x50, 0x45, 0x52, 0xa0,
  0x01, 0x03, 0x2a, 0x10, 0x0a, 0x09, 0x63, 0x65, 0x69, 0x6c, 0x5f, 0x6d,
  0x6f, 0x64, 0x65, 0x18, 0x00, 0xa0, 0x01, 0x02, 0x2a, 0x15, 0x0a, 0x0c,
  0x6b, 0x65, 0x72, 0x6e, 0x65, 0x6c, 0x5f, 0x73, 0x68, 0x61, 0x70, 0x65,
  0x40, 0x02, 0x40, 0x02, 0xa0, 0x01, 0x07, 0x2a, 0x10, 0x0a, 0x07, 0x73,
  0x74, 0x72, 0x69, 0x64, 0x65, 0x73, 0x40, 0x02, 0x40, 0x02, 0xa0, 0x01,
  0x07, 0x32, 0x00, 0x3a, 0x00, 0x0a, 0x50, 0x0a, 0x0f, 0x63, 0x6f, 0x6e,
  0x76, 0x32, 0x64, 0x5f, 0x31, 0x32, 0x5f, 0x69, 0x6e, 0x70, 0x75, 0x74,
  0x12, 0x0f, 0x61, 0x64, 0x6a, 0x75, 0x73, 0x74, 0x65, 0x64, 0x5f, 0x69,
  0x6e, 0x70, 0x75, 0x74, 0x31, 0x1a, 0x0a, 0x54, 0x72, 0x61, 0x6e, 0x73,
  0x70, 0x6f, 0x73, 0x65, 0x36, 0x22, 0x09, 0x54, 0x72, 0x61, 0x6e, 0x73,
  0x70, 0x6f, 0x73, 0x65, 0x2a, 0x11, 0x0a, 0x04, 0x70, 0x65, 0x72, 0x6d,
  0x40, 0x00, 0x40, 0x03, 0x40, 0x01, 0x40, 0x02, 0xa0, 0x01, 0x07, 0x32,
  0x00, 0x3a, 0x00, 0x0a, 0xb6, 0x01, 0x0a, 0x0f, 0x61, 0x64, 0x6a, 0x75,
  0x73, 0x74, 0x65, 0x64, 0x5f, 0x69, 0x6e, 0x70, 0x75, 0x74, 0x31, 0x0a,
  0x02, 0x57, 0x33, 0x0a, 0x02, 0x42, 0x33, 0x12, 0x13, 0x63, 0x6f, 0x6e,
  0x76, 0x6f, 0x6c, 0x75, 0x74, 0x69, 0x6f, 0x6e, 0x5f, 0x6f, 0x75, 0x74,
  0x70, 0x75, 0x74, 0x31, 0x1a, 0x09, 0x63, 0x6f, 0x6e, 0x76, 0x32, 0x64,
  0x5f, 0x31, 0x32, 0x22, 0x04, 0x43, 0x6f, 0x6e, 0x76, 0x2a, 0x15, 0x0a,
  0x08, 0x61, 0x75, 0x74, 0x6f, 0x5f, 0x70, 0x61, 0x64, 0x22, 0x06, 0x4e,
  0x4f, 0x54, 0x53, 0x45, 0x54, 0xa0, 0x01, 0x03, 0x2a, 0x12, 0x0a, 0x09,
  0x64, 0x69, 0x6c, 0x61, 0x74, 0x69, 0x6f, 0x6e, 0x73, 0x40, 0x01, 0x40,
  0x01, 0xa0, 0x01, 0x07, 0x2a, 0x0c, 0x0a, 0x05, 0x67, 0x72, 0x6f, 0x75,
  0x70, 0x18, 0x01, 0xa0, 0x01, 0x02, 0x2a, 0x15, 0x0a, 0x0c, 0x6b, 0x65,
  0x72, 0x6e, 0x65, 0x6c, 0x5f, 0x73, 0x68, 0x61, 0x70, 0x65, 0x40, 0x03,
  0x40, 0x03, 0xa0, 0x01, 0x07, 0x2a, 0x11, 0x0a, 0x04, 0x70, 0x61, 0x64,
  0x73, 0x40, 0x01, 0x40, 0x01, 0x40, 0x01, 0x40, 0x01, 0xa0, 0x01, 0x07,
  0x2a, 0x10, 0x0a, 0x07, 0x73, 0x74, 0x72, 0x69, 0x64, 0x65, 0x73, 0x40,
  0x01, 0x40, 0x01, 0xa0, 0x01, 0x07, 0x3a, 0x00, 0x0a, 0x38, 0x0a, 0x13,
  0x63, 0x6f, 0x6e, 0x76, 0x6f, 0x6c, 0x75, 0x74, 0x69, 0x6f, 0x6e, 0x5f,
  0x6f, 0x75, 0x74, 0x70, 0x75, 0x74, 0x31, 0x12, 0x10, 0x63, 0x6f, 0x6e,
  0x76, 0x32, 0x64, 0x5f, 0x31, 0x32, 0x2f, 0x52, 0x65, 0x6c, 0x75, 0x3a,
  0x30, 0x1a, 0x05, 0x52, 0x65, 0x6c, 0x75, 0x31, 0x22, 0x04, 0x52, 0x65,
  0x6c, 0x75, 0x32, 0x00, 0x3a, 0x00, 0x12, 0x05, 0x6d, 0x6e, 0x69, 0x73,
  0x74, 0x2a, 0x33, 0x08, 0x01, 0x08, 0x0a, 0x10, 0x01, 0x22, 0x28, 0x50,
  0x17, 0x4e, 0x3e, 0x61, 0xf6, 0xca, 0xbd, 0xab, 0xbd, 0x9a, 0x3e, 0x92,
  0xf6, 0x3d, 0x3e, 0x6e, 0x9c, 0x36, 0xbe, 0x64, 0x6b, 0xab, 0x3d, 0x2f,
  0x41, 0x74, 0x3e, 0x5f, 0xd5, 0x32, 0xbf, 0xd5, 0x6d, 0x4e, 0x3d, 0xa9,
  0xcc, 0x08, 0xbf, 0x42, 0x01, 0x57, 0x2a, 0x31, 0x08, 0x0a, 0x10, 0x01,
  0x22, 0x28, 0x13, 0x04, 0xd4, 0xbe, 0x03, 0x91, 0x44, 0x3f, 0x3b, 0xb7,
  0x94, 0xbf, 0xa8, 0x8f, 0x61, 0xbe, 0x08, 0x19, 0x31, 0x3f, 0x9d, 0x99,
  0xff, 0x3d, 0x18, 0x47, 0x17, 0xbf, 0x73, 0xa8, 0x91, 0xbc, 0x4d, 0x04,
  0xb7, 0x3e, 0xac, 0xdd, 0xcd, 0x3e, 0x42, 0x01, 0x42, 0x2a, 0xd1, 0x01,
  0x08, 0x31, 0x08, 0x01, 0x10, 0x01, 0x22, 0xc4, 0x01, 0x1d, 0x98, 0x30,
  0x3f, 0x26, 0x95, 0x98, 0x3f, 0xf0, 0x82, 0x67, 0x3f, 0x21, 0x7f, 0x23,
  0x3f, 0xeb, 0x59, 0x04, 0x3f, 0xa5, 0x18, 0xd7, 0x3e, 0x9c, 0xe2, 0x13,
  0x3e, 0xf4, 0xf1, 0x0e, 0xbe, 0xf8, 0x34, 0x18, 0xbd, 0xf0, 0xea, 0xa9,
  0xbc, 0x75, 0xde, 0x94, 0x3a, 0x8a, 0xb2, 0x7a, 0xbb, 0x48, 0x51, 0x42,
  0xb9, 0xc0, 0x9a, 0xc5, 0x3d, 0x48, 0x79, 0xb1, 0xbe, 0xd1, 0x6b, 0xe6,
  0xbd, 0x1e, 0x2c, 0x5d, 0xbd, 0x06, 0x5c, 0xf0, 0xbc, 0x61, 0x60, 0x07,
  0xbd, 0xc1, 0x27, 0x86, 0xbd, 0x09, 0x05, 0x03, 0x3e, 0x7b, 0xc6, 0x11,
  0xbe, 0x98, 0xb6, 0x9e, 0x3c, 0x9e, 0x05, 0x0f, 0x3d, 0xf6, 0x7a, 0x56,
  0xba, 0xbf, 0x70, 0xe4, 0xbb, 0xbe, 0x89, 0x9d, 0x3c, 0x74, 0x56, 0x75,
  0x3e, 0xf2, 0x65, 0xfd, 0x3e, 0x5f, 0xef, 0x85, 0x3e, 0xd8, 0xa2, 0x51,
  0x3d, 0xbc, 0x5a, 0xd2, 0x3c, 0x67, 0x09, 0x4c, 0x3d, 0x52, 0x0e, 0x8b,
  0x3e, 0x5e, 0x71, 0x2d, 0x3f, 0x05, 0x9f, 0x10, 0x3f, 0x60, 0x72, 0x3b,
  0x3e, 0x21, 0xff, 0x9f, 0x3d, 0xdd, 0x0d, 0x30, 0x3d, 0x63, 0xfa, 0x93,
  0x3d, 0xc8, 0x3e, 0x21, 0x3e, 0x29, 0xdd, 0xd4, 0x3e, 0xf8, 0xe0, 0x13,
  0xbf, 0xf8, 0x1a, 0xff, 0xbe, 0xe4, 0x2a, 0xb4, 0xbe, 0x32, 0x5f, 0x90,
  0xbe, 0xe8, 0x09, 0x87, 0xbe, 0x52, 0x7e, 0x11, 0xbf, 0x5d, 0x91, 0x2e,
  0xbf, 0x42, 0x02, 0x57, 0x31, 0x2a, 0x0e, 0x08, 0x01, 0x10, 0x01, 0x22,
  0x04, 0x7b, 0x82, 0xca, 0xbf, 0x42, 0x02, 0x42, 0x31, 0x2a, 0x1f, 0x08,
  0x02, 0x10, 0x07, 0x3a, 0x0b, 0xff, 0xff, 0xff, 0xff, 0xff, 0xff, 0xff,
  0xff, 0xff, 0x01, 0x31, 0x42, 0x0c, 0x73, 0x68, 0x61, 0x70, 0x65, 0x5f,
  0x74, 0x65, 0x6e, 0x73, 0x6f, 0x72, 0x2a, 0x34, 0x08, 0x01, 0x08, 0x01,
  0x08, 0x03, 0x08, 0x03, 0x10, 0x01, 0x22, 0x24, 0xc4, 0x92, 0x0b, 0xbe,
  0x6a, 0x55, 0x17, 0xbe, 0xf6, 0x7e, 0x08, 0xbe, 0xe8, 0xa6, 0xc0, 0x3f,
  0xb2, 0x9e, 0xde, 0xbe, 0xe1, 0xeb, 0x8c, 0x3f, 0x49, 0x1d, 0x7b, 0x3e,
  0x3f, 0x3f, 0xb5, 0xbd, 0xf1, 0x25, 0x65, 0x3e, 0x42, 0x02, 0x57, 0x32,
  0x2a, 0x0e, 0x08, 0x01, 0x10, 0x01, 0x22, 0x04, 0x47, 0xb1, 0x6a, 0x3a,
  0x42, 0x02, 0x42, 0x32, 0x2a, 0x34, 0x08, 0x01, 0x08, 0x01, 0x08, 0x03,
  0x08, 0x03, 0x10, 0x01, 0x22, 0x24, 0x63, 0xba, 0x48, 0xbf, 0x6d, 0xef,
  0x08, 0xbf, 0xe8, 0x2c, 0xdd, 0x3b, 0xd3, 0xf2, 0x45, 0x3f, 0xb7, 0xe0,
  0x70, 0x3e, 0x7a, 0x1a, 0x2b, 0x3f, 0x93, 0x04, 0x22, 0x3f, 0x17, 0xc0,
  0xa9, 0x3c, 0xbf, 0x04, 0x11, 0x3f, 0x42, 0x02, 0x57, 0x33, 0x2a, 0x0e,
  0x08, 0x01, 0x10, 0x01, 0x22, 0x04, 0x14, 0x01, 0x9a, 0xbc, 0x42, 0x02,
  0x42, 0x33, 0x5a, 0x2a, 0x0a, 0x0f, 0x63, 0x6f, 0x6e, 0x76, 0x32, 0x64,
  0x5f, 0x31, 0x32, 0x5f, 0x69, 0x6e, 0x70, 0x75, 0x74, 0x12, 0x17, 0x0a,
  0x15, 0x08, 0x01, 0x12, 0x11, 0x0a, 0x03, 0x12, 0x01, 0x4e, 0x0a, 0x02,
  0x08, 0x1c, 0x0a, 0x02, 0x08, 0x1c, 0x0a, 0x02, 0x08, 0x01, 0x62, 0x22,
  0x0a, 0x12, 0x64, 0x65, 0x6e, 0x73, 0x65, 0x5f, 0x31, 0x34, 0x2f, 0x53,
  0x6f, 0x66, 0x74, 0x6d, 0x61, 0x78, 0x3a, 0x30, 0x12, 0x0c, 0x0a, 0x0a,
  0x08, 0x01, 0x12, 0x06, 0x0a, 0x00, 0x0a, 0x02, 0x08, 0x0a, 0x42, 0x04,
  0x0a, 0x00, 0x10, 0x0a
};
unsigned int mnist_onnx_len = 2092;
